-- begin_signature
-- ROM
-- end_signature
WIDTH=8;
DEPTH=32;
ADDRESS_RADIX=UNS;
DATA_RADIX=BIN;

CONTENT BEGIN
31: 11111100; 
30: 10011001; 
29: 10111111; 
28: 00010001; 
27: 11100111; 
26: 11011100; 
25: 00110110; 
24: 01010010; 
23: 00110101; 
22: 00011101; 
21: 10010011; 
20: 10100111; 
19: 10100011; 
18: 11001101; 
17: 01110000; 
16: 11001010; 
15: 00001011; 
14: 01011100; 
13: 10110011; 
12: 01001010; 
11: 10111111; 
10: 01110101; 
9: 01111001; 
8: 01000111; 
7: 00111011; 
6: 10001101; 
5: 00010101; 
4: 11101111; 
3: 10010001; 
2: 00110001; 
1: 00100010; 
0: 00000010; 

END;
