-- begin_signature
-- ROM
-- end_signature
WIDTH=8;
DEPTH=2048;
ADDRESS_RADIX=UNS;
DATA_RADIX=BIN;

CONTENT BEGIN
2047: 00100000; 
2046: 11010010; 
2045: 00010100; 
2044: 11111111; 
2043: 00010111; 
2042: 10000011; 
2041: 01110110; 
2040: 10111101; 
2039: 10010101; 
2038: 11001100; 
2037: 00110001; 
2036: 01101101; 
2035: 01010111; 
2034: 11010100; 
2033: 01010100; 
2032: 10001111; 
2031: 10011001; 
2030: 10110001; 
2029: 01001001; 
2028: 00111000; 
2027: 10100011; 
2026: 00110100; 
2025: 01000010; 
2024: 10110010; 
2023: 00101011; 
2022: 11101001; 
2021: 10010100; 
2020: 00000100; 
2019: 11111111; 
2018: 01100001; 
2017: 00001111; 
2016: 01010110; 
2015: 11110101; 
2014: 00110110; 
2013: 01110111; 
2012: 10000111; 
2011: 11110100; 
2010: 11101111; 
2009: 01000111; 
2008: 10000110; 
2007: 00010100; 
2006: 11001000; 
2005: 11111011; 
2004: 00110111; 
2003: 00100000; 
2002: 11000000; 
2001: 10110110; 
2000: 01011001; 
1999: 00000001; 
1998: 01111001; 
1997: 00101001; 
1996: 10111011; 
1995: 10101101; 
1994: 11010100; 
1993: 01000010; 
1992: 11110110; 
1991: 00010001; 
1990: 00011000; 
1989: 10101110; 
1988: 11011001; 
1987: 11001100; 
1986: 01101110; 
1985: 10000011; 
1984: 01110011; 
1983: 10100101; 
1982: 00001011; 
1981: 11000100; 
1980: 11001111; 
1979: 01000010; 
1978: 00110000; 
1977: 01000011; 
1976: 10110010; 
1975: 10110101; 
1974: 01000001; 
1973: 10100000; 
1972: 01100111; 
1971: 01101011; 
1970: 00000001; 
1969: 00110011; 
1968: 11010110; 
1967: 00100010; 
1966: 10001000; 
1965: 10111001; 
1964: 11110101; 
1963: 11111110; 
1962: 01111011; 
1961: 01111110; 
1960: 10100001; 
1959: 11001000; 
1958: 10010110; 
1957: 11011000; 
1956: 01110010; 
1955: 00010001; 
1954: 10001100; 
1953: 00000101; 
1952: 01101110; 
1951: 01111000; 
1950: 01101000; 
1949: 01000001; 
1948: 11000001; 
1947: 01100101; 
1946: 11001101; 
1945: 01011111; 
1944: 10001100; 
1943: 10010000; 
1942: 01001101; 
1941: 10011101; 
1940: 11110001; 
1939: 11011001; 
1938: 11001000; 
1937: 11011101; 
1936: 11111101; 
1935: 01010101; 
1934: 00011101; 
1933: 01100111; 
1932: 01010101; 
1931: 10100111; 
1930: 11101101; 
1929: 00001000; 
1928: 11000010; 
1927: 00010000; 
1926: 01111000; 
1925: 10111011; 
1924: 01001000; 
1923: 01111101; 
1922: 11000010; 
1921: 01011010; 
1920: 10101110; 
1919: 01101011; 
1918: 11001111; 
1917: 11001000; 
1916: 01100110; 
1915: 11001011; 
1914: 10111010; 
1913: 11010000; 
1912: 00101100; 
1911: 10000111; 
1910: 10101001; 
1909: 10011110; 
1908: 00000101; 
1907: 10001111; 
1906: 01101010; 
1905: 11111000; 
1904: 00011101; 
1903: 10110100; 
1902: 00110001; 
1901: 10001000; 
1900: 10010101; 
1899: 01101000; 
1898: 10111000; 
1897: 11111110; 
1896: 00000101; 
1895: 10110001; 
1894: 00010110; 
1893: 11000100; 
1892: 00100111; 
1891: 11000011; 
1890: 11101111; 
1889: 00000000; 
1888: 10000110; 
1887: 10011101; 
1886: 10011000; 
1885: 11110100; 
1884: 00001001; 
1883: 01111001; 
1882: 11011001; 
1881: 10101111; 
1880: 01110110; 
1879: 00001001; 
1878: 01110101; 
1877: 11011011; 
1876: 10010100; 
1875: 11110101; 
1874: 01111001; 
1873: 10010100; 
1872: 11111010; 
1871: 01011000; 
1870: 10110111; 
1869: 01001010; 
1868: 10010010; 
1867: 11010001; 
1866: 10101101; 
1865: 01111000; 
1864: 00011011; 
1863: 11001000; 
1862: 01101011; 
1861: 00001101; 
1860: 11011100; 
1859: 00110101; 
1858: 00101100; 
1857: 01110101; 
1856: 10010001; 
1855: 01011111; 
1854: 00100110; 
1853: 10101001; 
1852: 11101001; 
1851: 10010000; 
1850: 01011110; 
1849: 10011011; 
1848: 10111001; 
1847: 00110101; 
1846: 01000010; 
1845: 10111001; 
1844: 10101001; 
1843: 10001000; 
1842: 10010110; 
1841: 01100001; 
1840: 10101111; 
1839: 11101000; 
1838: 01000100; 
1837: 01111010; 
1836: 01011110; 
1835: 01101011; 
1834: 01010100; 
1833: 11011010; 
1832: 00100010; 
1831: 00110100; 
1830: 11101010; 
1829: 00011010; 
1828: 01110111; 
1827: 11010100; 
1826: 01101010; 
1825: 01111011; 
1824: 00010110; 
1823: 01101001; 
1822: 00111101; 
1821: 00110111; 
1820: 10011110; 
1819: 00111110; 
1818: 10101111; 
1817: 01000001; 
1816: 10010001; 
1815: 01011111; 
1814: 10110001; 
1813: 01011010; 
1812: 01100100; 
1811: 10011100; 
1810: 10011111; 
1809: 01111000; 
1808: 01111010; 
1807: 10011010; 
1806: 00100010; 
1805: 11011111; 
1804: 10010000; 
1803: 01011001; 
1802: 00101001; 
1801: 10010001; 
1800: 11110101; 
1799: 11101001; 
1798: 01111011; 
1797: 01111101; 
1796: 10111011; 
1795: 01000010; 
1794: 00101001; 
1793: 11110000; 
1792: 00010011; 
1791: 11101010; 
1790: 10001011; 
1789: 01000000; 
1788: 01001011; 
1787: 01101110; 
1786: 00000101; 
1785: 10010010; 
1784: 01101100; 
1783: 11000001; 
1782: 10100011; 
1781: 10100110; 
1780: 00010111; 
1779: 11100101; 
1778: 00110100; 
1777: 10010111; 
1776: 10000110; 
1775: 01110100; 
1774: 10011001; 
1773: 11011001; 
1772: 10000110; 
1771: 01100001; 
1770: 01011000; 
1769: 00010110; 
1768: 10101010; 
1767: 01001100; 
1766: 10010011; 
1765: 11110110; 
1764: 11010010; 
1763: 01111110; 
1762: 01111001; 
1761: 01010100; 
1760: 11110100; 
1759: 00000000; 
1758: 00001101; 
1757: 00001110; 
1756: 10110000; 
1755: 10110101; 
1754: 00110100; 
1753: 01010111; 
1752: 01110100; 
1751: 01000010; 
1750: 00001101; 
1749: 10010111; 
1748: 10010111; 
1747: 10101000; 
1746: 00110100; 
1745: 11001000; 
1744: 11101101; 
1743: 10101000; 
1742: 10111110; 
1741: 11100000; 
1740: 00011100; 
1739: 01111001; 
1738: 10100010; 
1737: 11001100; 
1736: 01111110; 
1735: 01100001; 
1734: 01110011; 
1733: 00000111; 
1732: 10111101; 
1731: 10110101; 
1730: 01001101; 
1729: 01101101; 
1728: 00011101; 
1727: 00101111; 
1726: 01100001; 
1725: 11000011; 
1724: 00010100; 
1723: 00010000; 
1722: 01101011; 
1721: 11010100; 
1720: 10100101; 
1719: 10011100; 
1718: 11001001; 
1717: 10010010; 
1716: 11001111; 
1715: 00010011; 
1714: 11110011; 
1713: 00100100; 
1712: 00000110; 
1711: 01000001; 
1710: 11110100; 
1709: 01000101; 
1708: 11111010; 
1707: 00111001; 
1706: 01000101; 
1705: 01011010; 
1704: 10101010; 
1703: 00111000; 
1702: 10000100; 
1701: 11100111; 
1700: 00010000; 
1699: 10001001; 
1698: 10001011; 
1697: 10111110; 
1696: 11011100; 
1695: 00110010; 
1694: 10110010; 
1693: 11100110; 
1692: 01100110; 
1691: 11010011; 
1690: 01000011; 
1689: 00010101; 
1688: 10001111; 
1687: 01111000; 
1686: 10011110; 
1685: 11011000; 
1684: 01110010; 
1683: 10111111; 
1682: 01110010; 
1681: 00101000; 
1680: 10110010; 
1679: 10100101; 
1678: 01111010; 
1677: 11110011; 
1676: 00111010; 
1675: 10100011; 
1674: 00000001; 
1673: 10011010; 
1672: 00000000; 
1671: 10000100; 
1670: 10001100; 
1669: 01101001; 
1668: 01100010; 
1667: 01000101; 
1666: 00000111; 
1665: 10101100; 
1664: 00111100; 
1663: 10111000; 
1662: 10010000; 
1661: 11010010; 
1660: 00010101; 
1659: 00010100; 
1658: 01010100; 
1657: 11100101; 
1656: 10101000; 
1655: 10001100; 
1654: 10110100; 
1653: 01101110; 
1652: 10001011; 
1651: 00100011; 
1650: 11110000; 
1649: 10110001; 
1648: 00101100; 
1647: 00011000; 
1646: 10010010; 
1645: 00101001; 
1644: 10010101; 
1643: 10111010; 
1642: 00010001; 
1641: 00110110; 
1640: 00010011; 
1639: 01100101; 
1638: 00110010; 
1637: 01110111; 
1636: 11000111; 
1635: 01111011; 
1634: 10110011; 
1633: 10110010; 
1632: 10110010; 
1631: 10011111; 
1630: 00011111; 
1629: 10000011; 
1628: 01001110; 
1627: 00011001; 
1626: 11001110; 
1625: 01100011; 
1624: 01010111; 
1623: 00100001; 
1622: 10010101; 
1621: 01110110; 
1620: 00011110; 
1619: 01100100; 
1618: 10101011; 
1617: 10001000; 
1616: 11001101; 
1615: 01001000; 
1614: 01010010; 
1613: 01100010; 
1612: 11011011; 
1611: 01010000; 
1610: 10101001; 
1609: 00001100; 
1608: 10001110; 
1607: 00110111; 
1606: 11011101; 
1605: 10011101; 
1604: 00101001; 
1603: 11101110; 
1602: 11010011; 
1601: 11011110; 
1600: 01000011; 
1599: 11101001; 
1598: 01100000; 
1597: 10101000; 
1596: 11100100; 
1595: 01011101; 
1594: 00011000; 
1593: 00111001; 
1592: 01010110; 
1591: 00000110; 
1590: 10100001; 
1589: 11010100; 
1588: 11000101; 
1587: 10101001; 
1586: 00011010; 
1585: 10111000; 
1584: 01011011; 
1583: 11110101; 
1582: 01001100; 
1581: 01010111; 
1580: 00101000; 
1579: 01010001; 
1578: 01001001; 
1577: 00010100; 
1576: 11010101; 
1575: 11101010; 
1574: 11001111; 
1573: 11111100; 
1572: 11101000; 
1571: 11010110; 
1570: 10011110; 
1569: 11101011; 
1568: 10100101; 
1567: 11011110; 
1566: 10011101; 
1565: 11100011; 
1564: 00001001; 
1563: 10010100; 
1562: 11000011; 
1561: 11101110; 
1560: 11000111; 
1559: 00010000; 
1558: 01001111; 
1557: 01000111; 
1556: 10110110; 
1555: 10110100; 
1554: 00001110; 
1553: 11011111; 
1552: 10001101; 
1551: 10111100; 
1550: 01110101; 
1549: 01110111; 
1548: 11011100; 
1547: 10001100; 
1546: 01001100; 
1545: 11001001; 
1544: 10001111; 
1543: 11000000; 
1542: 10101000; 
1541: 01101000; 
1540: 10110011; 
1539: 00111111; 
1538: 10100101; 
1537: 10010101; 
1536: 11100000; 
1535: 00011011; 
1534: 00000111; 
1533: 01010110; 
1532: 11110000; 
1531: 00011100; 
1530: 10010001; 
1529: 00111110; 
1528: 00110001; 
1527: 01001111; 
1526: 10011100; 
1525: 11110111; 
1524: 00100111; 
1523: 10000100; 
1522: 01011001; 
1521: 01010001; 
1520: 00000011; 
1519: 11011001; 
1518: 00111010; 
1517: 01100010; 
1516: 11111111; 
1515: 01100001; 
1514: 10100111; 
1513: 11010110; 
1512: 00110111; 
1511: 11011101; 
1510: 00000101; 
1509: 00100111; 
1508: 00010110; 
1507: 11101110; 
1506: 10100101; 
1505: 11101010; 
1504: 10111011; 
1503: 01001111; 
1502: 01001001; 
1501: 10111000; 
1500: 00010101; 
1499: 00101000; 
1498: 11101110; 
1497: 10010111; 
1496: 00111001; 
1495: 10010111; 
1494: 00101110; 
1493: 10010110; 
1492: 00010111; 
1491: 11001000; 
1490: 11101000; 
1489: 01111011; 
1488: 01110010; 
1487: 00010011; 
1486: 00101111; 
1485: 01001101; 
1484: 00110111; 
1483: 10100011; 
1482: 11110110; 
1481: 01010100; 
1480: 00111110; 
1479: 10111110; 
1478: 01011100; 
1477: 00011100; 
1476: 11001010; 
1475: 10010000; 
1474: 00111101; 
1473: 11110000; 
1472: 01111000; 
1471: 11000101; 
1470: 10010011; 
1469: 11000000; 
1468: 11101000; 
1467: 10001011; 
1466: 11100100; 
1465: 10111111; 
1464: 01111100; 
1463: 10101101; 
1462: 01010111; 
1461: 10101100; 
1460: 00010100; 
1459: 00101000; 
1458: 00001000; 
1457: 01110001; 
1456: 11101111; 
1455: 00100110; 
1454: 01011101; 
1453: 10111101; 
1452: 00001010; 
1451: 01111010; 
1450: 01000010; 
1449: 00110100; 
1448: 11100101; 
1447: 01011001; 
1446: 01010110; 
1445: 11110001; 
1444: 00010001; 
1443: 00101101; 
1442: 01001001; 
1441: 11110011; 
1440: 11010110; 
1439: 10100101; 
1438: 00111000; 
1437: 00111110; 
1436: 10110010; 
1435: 01011010; 
1434: 10101011; 
1433: 01010011; 
1432: 10100010; 
1431: 00100100; 
1430: 00000101; 
1429: 10100011; 
1428: 00110110; 
1427: 01000011; 
1426: 01100011; 
1425: 11111111; 
1424: 00000100; 
1423: 00100111; 
1422: 01100111; 
1421: 11100010; 
1420: 00101101; 
1419: 00010111; 
1418: 10101111; 
1417: 00101111; 
1416: 01011001; 
1415: 11111001; 
1414: 01110010; 
1413: 00001100; 
1412: 01100001; 
1411: 01000001; 
1410: 11101010; 
1409: 11001111; 
1408: 11100110; 
1407: 11011001; 
1406: 10001101; 
1405: 10000111; 
1404: 11100111; 
1403: 10110001; 
1402: 01011000; 
1401: 01110101; 
1400: 11001010; 
1399: 00110110; 
1398: 11011111; 
1397: 01011100; 
1396: 11110010; 
1395: 01101111; 
1394: 00101000; 
1393: 10011101; 
1392: 10100010; 
1391: 11101010; 
1390: 00010010; 
1389: 00000101; 
1388: 01011100; 
1387: 10000011; 
1386: 10100000; 
1385: 11010011; 
1384: 01011000; 
1383: 10000011; 
1382: 00001000; 
1381: 10000010; 
1380: 00001010; 
1379: 11111011; 
1378: 10100011; 
1377: 00010101; 
1376: 00011110; 
1375: 11110100; 
1374: 01001011; 
1373: 10010001; 
1372: 11010100; 
1371: 11111011; 
1370: 11010101; 
1369: 10100000; 
1368: 10011111; 
1367: 01000101; 
1366: 11000101; 
1365: 00101001; 
1364: 01011000; 
1363: 11001100; 
1362: 10110001; 
1361: 00010010; 
1360: 01001100; 
1359: 11011011; 
1358: 01010101; 
1357: 01111001; 
1356: 00100111; 
1355: 01100100; 
1354: 10011001; 
1353: 11100010; 
1352: 01011100; 
1351: 00111010; 
1350: 10011010; 
1349: 10111100; 
1348: 11010110; 
1347: 00100000; 
1346: 00111110; 
1345: 11111100; 
1344: 10001000; 
1343: 01011110; 
1342: 01101101; 
1341: 11011101; 
1340: 01001110; 
1339: 00000101; 
1338: 11111011; 
1337: 01101110; 
1336: 10000100; 
1335: 11101100; 
1334: 10111101; 
1333: 11111000; 
1332: 11111000; 
1331: 10110010; 
1330: 00010011; 
1329: 11100101; 
1328: 01101110; 
1327: 01101110; 
1326: 11100011; 
1325: 01000000; 
1324: 00011111; 
1323: 11100000; 
1322: 11000100; 
1321: 01101011; 
1320: 10110010; 
1319: 01001001; 
1318: 01000000; 
1317: 10110110; 
1316: 11100000; 
1315: 11110011; 
1314: 00000000; 
1313: 00011001; 
1312: 11011010; 
1311: 00011000; 
1310: 11110001; 
1309: 01110010; 
1308: 00110000; 
1307: 00000101; 
1306: 00010000; 
1305: 10011101; 
1304: 11000111; 
1303: 00110100; 
1302: 01111011; 
1301: 11001110; 
1300: 01111100; 
1299: 11011011; 
1298: 11110101; 
1297: 01111000; 
1296: 01010010; 
1295: 00000110; 
1294: 01111010; 
1293: 01111011; 
1292: 10101001; 
1291: 01001000; 
1290: 11000110; 
1289: 11001111; 
1288: 11101111; 
1287: 11111011; 
1286: 10100100; 
1285: 01000011; 
1284: 10001010; 
1283: 01110101; 
1282: 11000101; 
1281: 00110100; 
1280: 00001000; 
1279: 01010110; 
1278: 10110101; 
1277: 10001001; 
1276: 10101110; 
1275: 00101101; 
1274: 01001111; 
1273: 10101010; 
1272: 00010011; 
1271: 10001111; 
1270: 01010011; 
1269: 10011000; 
1268: 10101110; 
1267: 00100110; 
1266: 11111001; 
1265: 11000111; 
1264: 01110000; 
1263: 00001111; 
1262: 10101010; 
1261: 11101101; 
1260: 00110100; 
1259: 11110110; 
1258: 10011100; 
1257: 10101110; 
1256: 11000001; 
1255: 00001011; 
1254: 00100010; 
1253: 11111010; 
1252: 10110111; 
1251: 11011001; 
1250: 01011110; 
1249: 10111111; 
1248: 00101000; 
1247: 11100011; 
1246: 01110100; 
1245: 10000100; 
1244: 11010010; 
1243: 01000001; 
1242: 10001001; 
1241: 11100011; 
1240: 01110011; 
1239: 00101100; 
1238: 10011110; 
1237: 10011001; 
1236: 01110000; 
1235: 01101011; 
1234: 10101101; 
1233: 01011101; 
1232: 00111111; 
1231: 11100111; 
1230: 10111111; 
1229: 10100100; 
1228: 10110011; 
1227: 00000100; 
1226: 10001000; 
1225: 00100001; 
1224: 00011010; 
1223: 00100011; 
1222: 01010001; 
1221: 10010000; 
1220: 01110110; 
1219: 11111111; 
1218: 11111010; 
1217: 10101011; 
1216: 00101000; 
1215: 01011110; 
1214: 10010101; 
1213: 11010000; 
1212: 01000101; 
1211: 10001011; 
1210: 00010100; 
1209: 10111010; 
1208: 00001001; 
1207: 10100101; 
1206: 11011011; 
1205: 11011100; 
1204: 11101000; 
1203: 01111000; 
1202: 10100100; 
1201: 11000111; 
1200: 00101100; 
1199: 11011100; 
1198: 01101011; 
1197: 11100000; 
1196: 01110101; 
1195: 10110001; 
1194: 11111000; 
1193: 00000110; 
1192: 00010010; 
1191: 11100111; 
1190: 00001001; 
1189: 10111110; 
1188: 11000010; 
1187: 10010101; 
1186: 00001010; 
1185: 11111110; 
1184: 01110110; 
1183: 01001000; 
1182: 00110001; 
1181: 11001010; 
1180: 10111010; 
1179: 00110000; 
1178: 10111010; 
1177: 10010100; 
1176: 11010110; 
1175: 00001100; 
1174: 10110100; 
1173: 10011110; 
1172: 01011100; 
1171: 11110110; 
1170: 10000011; 
1169: 11000000; 
1168: 10001101; 
1167: 11000010; 
1166: 11101101; 
1165: 10100110; 
1164: 01101110; 
1163: 11110111; 
1162: 01011011; 
1161: 01010010; 
1160: 10011111; 
1159: 10011001; 
1158: 00001111; 
1157: 10001001; 
1156: 01001001; 
1155: 11010101; 
1154: 00110111; 
1153: 10110010; 
1152: 11010011; 
1151: 00100100; 
1150: 10111011; 
1149: 10110110; 
1148: 11011011; 
1147: 10000100; 
1146: 00110011; 
1145: 10011110; 
1144: 10111101; 
1143: 10010001; 
1142: 11110011; 
1141: 11000111; 
1140: 00000011; 
1139: 00101100; 
1138: 10110011; 
1137: 11010110; 
1136: 00010000; 
1135: 10111111; 
1134: 01101001; 
1133: 10001011; 
1132: 10101000; 
1131: 11001100; 
1130: 00101101; 
1129: 10011000; 
1128: 01100010; 
1127: 01100110; 
1126: 00100101; 
1125: 11100011; 
1124: 11001000; 
1123: 11011001; 
1122: 01100000; 
1121: 00000111; 
1120: 01101100; 
1119: 00000000; 
1118: 10110111; 
1117: 10011010; 
1116: 00101011; 
1115: 11001100; 
1114: 00100001; 
1113: 01101101; 
1112: 10000110; 
1111: 10001111; 
1110: 11010111; 
1109: 11010000; 
1108: 11100100; 
1107: 11110010; 
1106: 11101010; 
1105: 10011010; 
1104: 11010110; 
1103: 10100000; 
1102: 10110110; 
1101: 00010111; 
1100: 10001110; 
1099: 11001011; 
1098: 00011000; 
1097: 11000101; 
1096: 00000101; 
1095: 11110010; 
1094: 00011101; 
1093: 01010111; 
1092: 11001001; 
1091: 01100001; 
1090: 00100101; 
1089: 11101010; 
1088: 01001100; 
1087: 11110000; 
1086: 00101011; 
1085: 01011110; 
1084: 11010011; 
1083: 11111001; 
1082: 11100111; 
1081: 10011111; 
1080: 10011100; 
1079: 10011100; 
1078: 01011111; 
1077: 01100100; 
1076: 11011000; 
1075: 01100001; 
1074: 01101111; 
1073: 01000001; 
1072: 10111101; 
1071: 00101111; 
1070: 11000101; 
1069: 01011011; 
1068: 01101011; 
1067: 01111011; 
1066: 00111100; 
1065: 10111110; 
1064: 01001111; 
1063: 10111001; 
1062: 10011111; 
1061: 10100111; 
1060: 11000010; 
1059: 00010101; 
1058: 01001110; 
1057: 11000010; 
1056: 00001110; 
1055: 01100001; 
1054: 11110111; 
1053: 10001101; 
1052: 00001011; 
1051: 01101011; 
1050: 11101001; 
1049: 11011010; 
1048: 11111100; 
1047: 00001010; 
1046: 10010110; 
1045: 11111110; 
1044: 10111111; 
1043: 00100101; 
1042: 00000111; 
1041: 00010001; 
1040: 01001010; 
1039: 00000110; 
1038: 11001011; 
1037: 10011101; 
1036: 10010111; 
1035: 11100001; 
1034: 11010110; 
1033: 11001110; 
1032: 00111111; 
1031: 00011000; 
1030: 01110000; 
1029: 10100011; 
1028: 10100110; 
1027: 11100100; 
1026: 01100011; 
1025: 01001000; 
1024: 11110110; 
1023: 01110110; 
1022: 10101100; 
1021: 00110001; 
1020: 01100100; 
1019: 01100011; 
1018: 10101010; 
1017: 10111000; 
1016: 01101111; 
1015: 01110110; 
1014: 11111001; 
1013: 10011101; 
1012: 01011100; 
1011: 01110101; 
1010: 10100011; 
1009: 10000011; 
1008: 00011001; 
1007: 01110000; 
1006: 11100100; 
1005: 11000101; 
1004: 11111100; 
1003: 11101100; 
1002: 11001101; 
1001: 01010100; 
1000: 01100111; 
999: 10110110; 
998: 10001001; 
997: 00010001; 
996: 00011000; 
995: 10110101; 
994: 10010010; 
993: 10100101; 
992: 11010010; 
991: 11001111; 
990: 10010110; 
989: 11011100; 
988: 01001001; 
987: 10111001; 
986: 10001101; 
985: 11101010; 
984: 11000001; 
983: 00100110; 
982: 11100001; 
981: 01110100; 
980: 01000001; 
979: 00110101; 
978: 10001111; 
977: 11010000; 
976: 11111111; 
975: 01100110; 
974: 01110010; 
973: 10000010; 
972: 00011110; 
971: 01101011; 
970: 00110010; 
969: 01001001; 
968: 10100100; 
967: 11011010; 
966: 10001100; 
965: 11001111; 
964: 01011011; 
963: 00010001; 
962: 01110110; 
961: 10001010; 
960: 11111110; 
959: 00100100; 
958: 10000011; 
957: 00000000; 
956: 10010001; 
955: 00011010; 
954: 01010010; 
953: 00000001; 
952: 01011000; 
951: 00011100; 
950: 11011010; 
949: 01011101; 
948: 11111100; 
947: 01000100; 
946: 00111101; 
945: 11110011; 
944: 00000010; 
943: 00100010; 
942: 01100010; 
941: 10101110; 
940: 01111101; 
939: 10011101; 
938: 10100101; 
937: 10000110; 
936: 10101111; 
935: 01000100; 
934: 00111001; 
933: 01100010; 
932: 00110001; 
931: 00000101; 
930: 10110110; 
929: 01000011; 
928: 01001001; 
927: 11011000; 
926: 11101101; 
925: 00001000; 
924: 10001101; 
923: 00111110; 
922: 00001010; 
921: 10000111; 
920: 11000100; 
919: 11011010; 
918: 01000000; 
917: 11000100; 
916: 01011100; 
915: 10010100; 
914: 10010111; 
913: 01111010; 
912: 00101100; 
911: 00111110; 
910: 01110000; 
909: 11000010; 
908: 01001001; 
907: 11100010; 
906: 01000111; 
905: 01001000; 
904: 10001001; 
903: 10100100; 
902: 11011100; 
901: 00001000; 
900: 01101011; 
899: 11010011; 
898: 10001000; 
897: 01011011; 
896: 00110100; 
895: 00101111; 
894: 11101000; 
893: 01101011; 
892: 10100111; 
891: 00011111; 
890: 01100111; 
889: 10000100; 
888: 00000000; 
887: 01010011; 
886: 11010001; 
885: 11110101; 
884: 01111101; 
883: 00100010; 
882: 10010001; 
881: 00001001; 
880: 00101001; 
879: 01001010; 
878: 10001011; 
877: 11110111; 
876: 11111000; 
875: 10110111; 
874: 01110010; 
873: 10001111; 
872: 01100000; 
871: 11000010; 
870: 00100000; 
869: 01101101; 
868: 01000000; 
867: 01100110; 
866: 00101111; 
865: 00100111; 
864: 00001101; 
863: 00111100; 
862: 10011000; 
861: 10111011; 
860: 11100000; 
859: 10001110; 
858: 10101010; 
857: 00111000; 
856: 11100011; 
855: 11100010; 
854: 00110111; 
853: 11101011; 
852: 01101000; 
851: 11000101; 
850: 00111101; 
849: 00110100; 
848: 01101111; 
847: 11000010; 
846: 01110100; 
845: 11011101; 
844: 10000011; 
843: 11001100; 
842: 10101110; 
841: 00000111; 
840: 10001001; 
839: 10101001; 
838: 01110011; 
837: 00010110; 
836: 00010111; 
835: 00010101; 
834: 00110111; 
833: 11001010; 
832: 00111000; 
831: 01011011; 
830: 00000110; 
829: 10100010; 
828: 00111010; 
827: 00110011; 
826: 01101001; 
825: 10010100; 
824: 00101110; 
823: 10010111; 
822: 10110100; 
821: 01101101; 
820: 01011001; 
819: 01111000; 
818: 11010110; 
817: 11101101; 
816: 01101101; 
815: 01101101; 
814: 10011010; 
813: 10001010; 
812: 10110001; 
811: 00000100; 
810: 10010001; 
809: 01000001; 
808: 00011100; 
807: 11011101; 
806: 00011000; 
805: 01110000; 
804: 10011000; 
803: 00101001; 
802: 01001010; 
801: 01101001; 
800: 10101111; 
799: 01000010; 
798: 00011000; 
797: 00010100; 
796: 00110000; 
795: 10001010; 
794: 11110011; 
793: 10001100; 
792: 01101110; 
791: 01100100; 
790: 00111110; 
789: 00110000; 
788: 11110000; 
787: 00011010; 
786: 00101101; 
785: 10010000; 
784: 01101111; 
783: 01010010; 
782: 10010011; 
781: 00010000; 
780: 00100001; 
779: 10011101; 
778: 10101000; 
777: 01011110; 
776: 11100111; 
775: 11111110; 
774: 00101001; 
773: 00101101; 
772: 11001110; 
771: 11100110; 
770: 11010010; 
769: 10111011; 
768: 01011111; 
767: 00000010; 
766: 00111000; 
765: 01000010; 
764: 00101000; 
763: 01110000; 
762: 00011001; 
761: 00001111; 
760: 11110100; 
759: 10100011; 
758: 01010011; 
757: 00110010; 
756: 10011001; 
755: 00110011; 
754: 10011000; 
753: 10111111; 
752: 11100100; 
751: 10111011; 
750: 11000000; 
749: 00101001; 
748: 01110001; 
747: 01000001; 
746: 10100001; 
745: 11111010; 
744: 10001101; 
743: 01100011; 
742: 10111110; 
741: 11101111; 
740: 10011001; 
739: 10100010; 
738: 11111110; 
737: 10101111; 
736: 01100001; 
735: 11000110; 
734: 00110000; 
733: 11100011; 
732: 11100110; 
731: 10010100; 
730: 00101011; 
729: 00010110; 
728: 10100001; 
727: 00100111; 
726: 00010010; 
725: 11011100; 
724: 01000101; 
723: 11100010; 
722: 00111010; 
721: 10110000; 
720: 10010001; 
719: 01011100; 
718: 00110001; 
717: 00000110; 
716: 10110111; 
715: 10010011; 
714: 01010100; 
713: 10010110; 
712: 10010000; 
711: 00100110; 
710: 00000001; 
709: 10000010; 
708: 10100101; 
707: 01001110; 
706: 11000010; 
705: 00110110; 
704: 10001111; 
703: 00111010; 
702: 11001001; 
701: 00101001; 
700: 00101011; 
699: 11101101; 
698: 11101111; 
697: 01011100; 
696: 11111010; 
695: 11100000; 
694: 01100101; 
693: 00110011; 
692: 11101011; 
691: 11100010; 
690: 00111011; 
689: 10011000; 
688: 10111001; 
687: 00001100; 
686: 00100100; 
685: 11010001; 
684: 00111100; 
683: 11010101; 
682: 01110100; 
681: 01110001; 
680: 00101001; 
679: 01111100; 
678: 01011011; 
677: 10100001; 
676: 11111010; 
675: 11010011; 
674: 00111000; 
673: 00110111; 
672: 10000011; 
671: 11010110; 
670: 11101110; 
669: 00101001; 
668: 01110011; 
667: 10110101; 
666: 11000111; 
665: 01110011; 
664: 11000000; 
663: 10010101; 
662: 00111101; 
661: 00100101; 
660: 10101100; 
659: 00100101; 
658: 01011100; 
657: 00011100; 
656: 01100100; 
655: 01110010; 
654: 01001011; 
653: 00011100; 
652: 00110000; 
651: 01010111; 
650: 11100110; 
649: 10100011; 
648: 01000011; 
647: 11010101; 
646: 10011010; 
645: 11110001; 
644: 11011000; 
643: 11000001; 
642: 11101100; 
641: 11000010; 
640: 11001010; 
639: 01111000; 
638: 10011111; 
637: 11111010; 
636: 10111010; 
635: 01101000; 
634: 00111111; 
633: 11110011; 
632: 01011010; 
631: 00000001; 
630: 10001000; 
629: 00100100; 
628: 00011100; 
627: 01000010; 
626: 10100101; 
625: 01110000; 
624: 11100011; 
623: 11111100; 
622: 11100101; 
621: 01111101; 
620: 11000001; 
619: 01001000; 
618: 01110011; 
617: 11111101; 
616: 11111110; 
615: 10100101; 
614: 00100101; 
613: 00100101; 
612: 00111101; 
611: 01010110; 
610: 01111110; 
609: 00100111; 
608: 00111100; 
607: 01001001; 
606: 10100111; 
605: 11100001; 
604: 11011001; 
603: 00111111; 
602: 01110100; 
601: 10100100; 
600: 01100111; 
599: 00110011; 
598: 00001110; 
597: 10100111; 
596: 00010001; 
595: 01110010; 
594: 11110011; 
593: 00001110; 
592: 01011111; 
591: 00010111; 
590: 00100101; 
589: 10110101; 
588: 01011010; 
587: 11111100; 
586: 00011011; 
585: 10100001; 
584: 11100001; 
583: 11000111; 
582: 00001000; 
581: 11000111; 
580: 00010011; 
579: 11000011; 
578: 00011011; 
577: 11011100; 
576: 11000100; 
575: 10010101; 
574: 00111100; 
573: 11101100; 
572: 10100011; 
571: 10010001; 
570: 01011100; 
569: 11010000; 
568: 00001110; 
567: 11111100; 
566: 01010110; 
565: 00000000; 
564: 11101100; 
563: 10010110; 
562: 11001110; 
561: 01010101; 
560: 01101001; 
559: 10100111; 
558: 10110110; 
557: 00011001; 
556: 01101011; 
555: 10011010; 
554: 01011100; 
553: 10001001; 
552: 10111110; 
551: 11010111; 
550: 01101010; 
549: 11110110; 
548: 01010010; 
547: 10010000; 
546: 01001010; 
545: 11100000; 
544: 01101111; 
543: 01100110; 
542: 11110000; 
541: 00000111; 
540: 01101001; 
539: 10011100; 
538: 10101111; 
537: 10011100; 
536: 01010010; 
535: 10001110; 
534: 00101011; 
533: 00110101; 
532: 01100000; 
531: 00011010; 
530: 01100100; 
529: 01101001; 
528: 00000001; 
527: 01101100; 
526: 11101111; 
525: 00101101; 
524: 00100000; 
523: 01100110; 
522: 01000011; 
521: 01100110; 
520: 10110001; 
519: 00010010; 
518: 01100011; 
517: 00100100; 
516: 01101100; 
515: 10001110; 
514: 00000011; 
513: 01101010; 
512: 00100101; 
511: 11001110; 
510: 01101111; 
509: 01000000; 
508: 00001101; 
507: 10001100; 
506: 00010101; 
505: 11110101; 
504: 00110111; 
503: 00010111; 
502: 00110111; 
501: 11111110; 
500: 10101000; 
499: 10100001; 
498: 10101101; 
497: 01101010; 
496: 11110011; 
495: 00111110; 
494: 00010101; 
493: 01110101; 
492: 11010001; 
491: 00001101; 
490: 01101000; 
489: 01101100; 
488: 11010100; 
487: 10111101; 
486: 11000111; 
485: 01100110; 
484: 11011100; 
483: 11001101; 
482: 01000010; 
481: 01100000; 
480: 11000010; 
479: 10100111; 
478: 00111111; 
477: 11110111; 
476: 01011111; 
475: 10001010; 
474: 00010010; 
473: 00101001; 
472: 00101010; 
471: 01001111; 
470: 11111101; 
469: 10000101; 
468: 11011110; 
467: 00101100; 
466: 00111110; 
465: 01100001; 
464: 00001100; 
463: 10111110; 
462: 10100001; 
461: 01101110; 
460: 11110000; 
459: 10000110; 
458: 10111001; 
457: 11100011; 
456: 00011000; 
455: 10001101; 
454: 00000011; 
453: 00101110; 
452: 01111100; 
451: 10111000; 
450: 00100011; 
449: 11110100; 
448: 00110010; 
447: 11100000; 
446: 00101010; 
445: 00110101; 
444: 00010010; 
443: 11011011; 
442: 00110001; 
441: 10100110; 
440: 01100001; 
439: 11010011; 
438: 11011111; 
437: 10111100; 
436: 00011001; 
435: 00010010; 
434: 00100111; 
433: 11101111; 
432: 01000010; 
431: 01010010; 
430: 10100001; 
429: 11011010; 
428: 11011010; 
427: 10011001; 
426: 01000000; 
425: 10100011; 
424: 00000000; 
423: 01110111; 
422: 01011101; 
421: 01000000; 
420: 00011110; 
419: 10101101; 
418: 01001111; 
417: 00111110; 
416: 00111110; 
415: 10110000; 
414: 01100110; 
413: 10011111; 
412: 00011111; 
411: 00001111; 
410: 11110001; 
409: 11000000; 
408: 01100000; 
407: 11100100; 
406: 11111000; 
405: 11111011; 
404: 01011111; 
403: 11011001; 
402: 01110101; 
401: 01110101; 
400: 11110010; 
399: 11011111; 
398: 10111101; 
397: 01111011; 
396: 00111100; 
395: 01001101; 
394: 00100100; 
393: 01011001; 
392: 01000111; 
391: 11001000; 
390: 10110100; 
389: 00110111; 
388: 01101110; 
387: 00000101; 
386: 10000011; 
385: 11100111; 
384: 11100110; 
383: 00000101; 
382: 01110010; 
381: 00100110; 
380: 10011101; 
379: 00000000; 
378: 00000101; 
377: 11110011; 
376: 01111001; 
375: 10101110; 
374: 11000100; 
373: 11011011; 
372: 01001111; 
371: 00010011; 
370: 11101101; 
369: 01001100; 
368: 11000001; 
367: 10000011; 
366: 10111011; 
365: 10001010; 
364: 10001010; 
363: 10100101; 
362: 01001111; 
361: 11101001; 
360: 00101010; 
359: 01100010; 
358: 01000000; 
357: 01010011; 
356: 10010010; 
355: 01110001; 
354: 10011111; 
353: 11100010; 
352: 11001010; 
351: 00100011; 
350: 00001110; 
349: 11100101; 
348: 00001000; 
347: 11011001; 
346: 00011010; 
345: 11111101; 
344: 10011001; 
343: 10001011; 
342: 01100100; 
341: 10101110; 
340: 01011110; 
339: 00011101; 
338: 11111101; 
337: 00001101; 
336: 10111001; 
335: 10010001; 
334: 10000010; 
333: 00101110; 
332: 01000110; 
331: 00011001; 
330: 11100010; 
329: 11011100; 
328: 00111001; 
327: 00111111; 
326: 11100001; 
325: 10100001; 
324: 00010001; 
323: 10101010; 
322: 00110010; 
321: 11100101; 
320: 11110011; 
319: 10011011; 
318: 01111010; 
317: 10100010; 
316: 00101010; 
315: 11010111; 
314: 10101101; 
313: 11110000; 
312: 01101011; 
311: 11110010; 
310: 01100110; 
309: 00100101; 
308: 00011001; 
307: 10000011; 
306: 11101110; 
305: 11101110; 
304: 11001001; 
303: 00010100; 
302: 00110001; 
301: 11100110; 
300: 11010111; 
299: 10110011; 
298: 10000101; 
297: 00000101; 
296: 10001110; 
295: 10110000; 
294: 01100001; 
293: 11111011; 
292: 01111010; 
291: 01000111; 
290: 10000101; 
289: 00100101; 
288: 10010101; 
287: 10100011; 
286: 10001100; 
285: 10001011; 
284: 01010101; 
283: 11111011; 
282: 11110001; 
281: 01101110; 
280: 11100010; 
279: 01000111; 
278: 00011111; 
277: 00001111; 
276: 01011000; 
275: 01110001; 
274: 00011101; 
273: 10110110; 
272: 10101100; 
271: 01111010; 
270: 01110100; 
269: 01111100; 
268: 01011011; 
267: 00011111; 
266: 01111101; 
265: 10100110; 
264: 00010000; 
263: 01100101; 
262: 01000111; 
261: 11011111; 
260: 00100110; 
259: 01000111; 
258: 11011100; 
257: 10000101; 
256: 10100110; 
255: 00110000; 
254: 10011010; 
253: 00111111; 
252: 11011100; 
251: 11100101; 
250: 10111100; 
249: 00111101; 
248: 11010110; 
247: 11001001; 
246: 00000010; 
245: 11101000; 
244: 00011010; 
243: 01100101; 
242: 00010110; 
241: 10001101; 
240: 10110100; 
239: 10110001; 
238: 11000011; 
237: 01111001; 
236: 01011010; 
235: 11100010; 
234: 11100111; 
233: 00000111; 
232: 00010010; 
231: 11100000; 
230: 00010101; 
229: 11000001; 
228: 11100110; 
227: 00101111; 
226: 00010010; 
225: 01101110; 
224: 10110011; 
223: 10111000; 
222: 11000010; 
221: 11011011; 
220: 00101001; 
219: 10111000; 
218: 01001110; 
217: 11000011; 
216: 01010011; 
215: 00000110; 
214: 10111111; 
213: 10000110; 
212: 10011110; 
211: 10011100; 
210: 10001001; 
209: 00010001; 
208: 11000000; 
207: 00010011; 
206: 00011100; 
205: 11100011; 
204: 11101000; 
203: 11111010; 
202: 11110001; 
201: 11100011; 
200: 11010100; 
199: 10011101; 
198: 01100011; 
197: 00001000; 
196: 00101110; 
195: 10010010; 
194: 00001111; 
193: 01110011; 
192: 00011010; 
191: 01100111; 
190: 00010000; 
189: 11001100; 
188: 01001001; 
187: 00101111; 
186: 11011010; 
185: 00010001; 
184: 10111001; 
183: 00111101; 
182: 00001010; 
181: 11000111; 
180: 11100100; 
179: 10110001; 
178: 01111101; 
177: 01011011; 
176: 01110001; 
175: 11100011; 
174: 00110010; 
173: 11110111; 
172: 11101111; 
171: 10001100; 
170: 11001100; 
169: 01100000; 
168: 10001000; 
167: 01010110; 
166: 11111101; 
165: 11101000; 
164: 01110100; 
163: 00000110; 
162: 10010101; 
161: 10110100; 
160: 00111101; 
159: 00111010; 
158: 00000111; 
157: 10011001; 
156: 10111101; 
155: 01010000; 
154: 10100011; 
153: 01111000; 
152: 01010000; 
151: 00101011; 
150: 01111110; 
149: 01001011; 
148: 11001001; 
147: 01011001; 
146: 00110111; 
145: 01011011; 
144: 11010101; 
143: 11111001; 
142: 00111110; 
141: 11101010; 
140: 10000111; 
139: 11010100; 
138: 10011010; 
137: 00010101; 
136: 01010101; 
135: 10000100; 
134: 01011111; 
133: 10100011; 
132: 10111001; 
131: 00111010; 
130: 11000010; 
129: 01111100; 
128: 10001011; 
127: 00000001; 
126: 10011000; 
125: 01110011; 
124: 00111101; 
123: 10001110; 
122: 01001111; 
121: 11000011; 
120: 00000010; 
119: 01100011; 
118: 10111110; 
117: 01101101; 
116: 10000011; 
115: 01001100; 
114: 10010010; 
113: 11110100; 
112: 11101101; 
111: 10000101; 
110: 11111100; 
109: 01011000; 
108: 00011010; 
107: 11001110; 
106: 01111000; 
105: 01111000; 
104: 11001010; 
103: 01111001; 
102: 11100110; 
101: 11011101; 
100: 00000011; 
99: 00110001; 
98: 01111001; 
97: 11001001; 
96: 10011001; 
95: 11001100; 
94: 01010010; 
93: 01010010; 
92: 01001010; 
91: 11100011; 
90: 11101011; 
89: 10011101; 
88: 01010001; 
87: 11010000; 
86: 00111110; 
85: 00000101; 
84: 01100010; 
83: 11010111; 
82: 00001101; 
81: 11111100; 
80: 00000011; 
79: 00001110; 
78: 10110101; 
77: 00101011; 
76: 01001000; 
75: 11000011; 
74: 00101111; 
73: 01001011; 
72: 00010100; 
71: 11100110; 
70: 11011011; 
69: 01011011; 
68: 10001011; 
67: 01001100; 
66: 00001010; 
65: 10111011; 
64: 00101110; 
63: 11000011; 
62: 10100001; 
61: 00010011; 
60: 11110010; 
59: 10101100; 
58: 10111100; 
57: 00000110; 
56: 11000110; 
55: 01010110; 
54: 11111011; 
53: 11110010; 
52: 01100111; 
51: 00101011; 
50: 00001101; 
49: 11001110; 
48: 10100010; 
47: 10000011; 
46: 11000110; 
45: 11000010; 
44: 01001111; 
43: 10101111; 
42: 00100011; 
41: 00111101; 
40: 01000111; 
39: 10111010; 
38: 11100000; 
37: 00010001; 
36: 01111010; 
35: 00100100; 
34: 11001111; 
33: 01111101; 
32: 10010001; 
31: 00111001; 
30: 11100101; 
29: 00001110; 
28: 01001110; 
27: 01010110; 
26: 10000111; 
25: 11000101; 
24: 00011110; 
23: 01110101; 
22: 00000011; 
21: 11011011; 
20: 11100000; 
19: 00001111; 
18: 00111110; 
17: 00100010; 
16: 00110000; 
15: 11111100; 
14: 11110101; 
13: 00101011; 
12: 10001010; 
11: 10111100; 
10: 01111000; 
9: 10010010; 
8: 00010110; 
7: 10011111; 
6: 11111000; 
5: 11011001; 
4: 00110100; 
3: 01010000; 
2: 11001100; 
1: 00100010; 
0: 10010001; 

END;
